<blk>	0
<sos/eos>	0
<unk>	0
s	-3.18357
▁the	-3.38981
t	-3.68432
e	-3.74298
d	-3.89487
▁a	-3.9104
ed	-3.9969
▁and	-4.07572
▁of	-4.12835
▁to	-4.1613
n	-4.3424
ing	-4.35549
a	-4.37669
y	-4.40466
▁in	-4.45616
i	-4.5238
c	-4.53306
o	-4.60543
r	-4.63825
m	-4.64347
er	-4.75415
▁he	-4.75611
▁i	-4.76757
p	-4.77972
l	-4.79396
▁s	-4.80762
u	-4.92646
▁was	-4.97231
▁that	-5.02986
re	-5.03686
▁it	-5.03801
ly	-5.05583
▁f	-5.09733
or	-5.11152
ar	-5.12403
f	-5.17462
▁	-5.17654
b	-5.18314
in	-5.21521
▁p	-5.23554
en	-5.24104
g	-5.25036
▁be	-5.25262
▁for	-5.2772
▁his	-5.28636
'	-5.29473
▁w	-5.33872
le	-5.34898
al	-5.36408
h	-5.37205
▁re	-5.40801
w	-5.44016
st	-5.45327
▁with	-5.45437
▁had	-5.45605
▁you	-5.47982
on	-5.49874
▁as	-5.51418
▁t	-5.5315
▁her	-5.53738
it	-5.55705
▁me	-5.61692
▁so	-5.63651
▁c	-5.64585
ri	-5.64743
▁st	-5.64993
▁e	-5.66148
th	-5.66845
ch	-5.69058
▁not	-5.69315
▁on	-5.70478
▁but	-5.70524
▁she	-5.71359
v	-5.7186
ce	-5.72589
k	-5.7269
▁de	-5.74569
▁g	-5.75692
▁is	-5.76651
an	-5.77672
ll	-5.79186
▁at	-5.7955
ic	-5.83476
▁b	-5.84286
ter	-5.84551
ur	-5.901
se	-5.90517
ent	-5.90629
ir	-5.92104
ro	-5.941
es	-5.96174
ve	-5.96292
ow	-5.96678
▁him	-5.97965
▁no	-5.99741
il	-6.00284
▁la	-6.00502
▁we	-6.02373
ra	-6.0375
▁my	-6.07088
▁all	-6.08025
▁have	-6.08829
▁by	-6.09145
la	-6.09986
▁this	-6.11494
▁were	-6.12533
at	-6.12958
▁which	-6.13002
▁from	-6.1767
▁do	-6.17811
▁d	-6.18564
▁who	-6.18699
us	-6.18816
▁they	-6.18891
ck	-6.19784
ne	-6.21301
▁said	-6.23015
▁con	-6.23922
▁or	-6.24192
▁one	-6.24319
▁an	-6.24559
▁ca	-6.25413
▁r	-6.30792
▁go	-6.3174
el	-6.3198
▁man	-6.33162
pp	-6.33828
▁le	-6.34736
ion	-6.36543
ation	-6.36766
▁o	-6.38355
ng	-6.38385
te	-6.3849
▁ex	-6.38979
ant	-6.39438
▁bo	-6.42142
▁there	-6.43316
▁su	-6.43996
▁ma	-6.44053
tion	-6.4424
▁when	-6.44773
▁mo	-6.46661
lo	-6.47132
▁co	-6.4742
as	-6.47676
▁pro	-6.48021
id	-6.49359
ol	-6.50518
▁would	-6.50699
▁their	-6.51543
▁pa	-6.53092
ver	-6.5312
▁what	-6.54969
ry	-6.5619
▁sh	-6.5696
▁sa	-6.57117
▁un	-6.57398
▁th	-6.57492
▁ha	-6.58007
▁sp	-6.58528
un	-6.59049
▁li	-6.59239
ive	-6.60272
▁out	-6.6076
▁fa	-6.61362
▁en	-6.63638
▁if	-6.63651
▁up	-6.64024
▁ro	-6.66185
▁been	-6.6645
ight	-6.67785
ish	-6.68219
▁k	-6.68437
▁see	-6.6904
▁lo	-6.69175
▁ch	-6.70553
▁br	-6.71012
ate	-6.71265
mp	-6.71392
▁are	-6.71648
▁will	-6.72353
am	-6.72394
om	-6.73907
ment	-6.7404
ure	-6.74663
est	-6.75029
▁ne	-6.75207
▁could	-6.75707
ut	-6.75888
▁them	-6.76109
ul	-6.76532
▁dis	-6.77394
▁mi	-6.78184
ge	-6.79978
ance	-6.80103
ence	-6.80802
age	-6.81059
▁some	-6.81733
ity	-6.81807
▁ho	-6.82511
ke	-6.83048
▁po	-6.83368
▁us	-6.84523
lu	-6.84679
und	-6.84844
▁more	-6.87399
▁into	-6.87439
im	-6.8868
ist	-6.89779
able	-6.90283
ard	-6.90656
▁did	-6.91071
ig	-6.918
▁ba	-6.92013
if	-6.92254
▁time	-6.92769
▁other	-6.93743
ugh	-6.94667
▁your	-6.94729
▁cr	-6.9552
▁like	-6.95521
▁than	-6.95721
ill	-6.95888
vi	-6.96158
▁know	-6.97012
▁very	-6.97793
▁h	-6.98665
per	-6.99706
▁pre	-6.99978
▁now	-7.00456
our	-7.00936
ies	-7.0236
▁little	-7.02595
▁about	-7.05155
▁day	-7.05903
▁look	-7.05931
ful	-7.06373
▁after	-7.07342
▁over	-7.08156
▁can	-7.09003
▁any	-7.11195
▁has	-7.11203
ther	-7.11309
ness	-7.11538
▁again	-7.12301
▁com	-7.14087
x	-7.15156
z	-7.16149
▁vi	-7.1619
▁great	-7.16512
▁upon	-7.16557
ble	-7.16677
▁hand	-7.16954
▁well	-7.17119
▁our	-7.18053
ous	-7.18062
▁car	-7.19326
▁two	-7.19884
▁gra	-7.20314
ine	-7.20507
▁only	-7.21478
ious	-7.21885
▁ga	-7.23775
▁say	-7.24488
▁every	-7.24532
▁mar	-7.24923
man	-7.25131
▁should	-7.25767
▁down	-7.26011
▁made	-7.26017
▁even	-7.26027
▁da	-7.26747
▁before	-7.2708
▁miss	-7.27286
▁hu	-7.27457
▁cha	-7.28283
▁old	-7.28475
ward	-7.28747
qui	-7.29831
▁good	-7.30266
▁long	-7.30827
ak	-7.31895
▁di	-7.31979
▁such	-7.34071
▁way	-7.35131
▁came	-7.37123
act	-7.3825
▁comp	-7.38821
▁never	-7.39526
▁how	-7.39572
▁fl	-7.39697
▁mister	-7.39936
▁v	-7.40009
▁come	-7.40191
▁don	-7.40902
less	-7.4104
▁much	-7.41266
▁where	-7.41504
j	-7.41744
▁back	-7.42628
▁men	-7.43489
▁must	-7.44515
ated	-7.44906
▁take	-7.45126
▁ri	-7.46799
▁house	-7.47373
▁thing	-7.47657
▁just	-7.47913
ian	-7.50007
▁tra	-7.50142
▁own	-7.5125
▁think	-7.5186
▁bu	-7.51971
▁thought	-7.52633
▁first	-7.53387
▁make	-7.55176
▁might	-7.56093
▁may	-7.56269
▁na	-7.57779
▁himself	-7.58463
qua	-7.59981
▁part	-7.6002
▁through	-7.60288
▁under	-7.63784
▁place	-7.6384
iz	-7.64505
▁mu	-7.64885
▁went	-7.65679
▁imp	-7.65704
▁get	-7.66137
▁new	-7.66398
▁give	-7.66479
▁head	-7.67192
▁pass	-7.68367
▁love	-7.68715
▁life	-7.68865
▁eyes	-7.69082
▁va	-7.69548
▁without	-7.70298
ign	-7.70641
▁those	-7.70863
▁jo	-7.71478
▁most	-7.72111
que	-7.72456
▁away	-7.72575
▁turn	-7.73188
▁young	-7.75343
▁du	-7.75655
▁still	-7.77964
▁night	-7.78673
▁found	-7.79285
▁tru	-7.79484
▁nothing	-7.80091
▁while	-7.80139
▁tell	-7.80484
▁face	-7.80649
▁people	-7.81647
▁though	-7.82128
▁sha	-7.83201
▁ear	-7.83774
▁year	-7.83826
▁work	-7.83978
▁count	-7.84501
▁yet	-7.85662
▁three	-7.85975
▁word	-7.86597
▁right	-7.86946
▁room	-7.90003
▁je	-7.9022
▁asked	-7.90627
▁child	-7.91367
▁put	-7.91503
▁same	-7.9178
▁heart	-7.92134
▁ever	-7.92806
ook	-7.94216
▁another	-7.94617
▁sea	-7.94923
▁left	-7.95405
▁shall	-7.95754
▁arm	-7.95974
side	-7.96067
uff	-7.96137
▁father	-7.96278
▁girl	-7.96378
▁open	-7.9697
▁took	-7.98864
▁seemed	-7.99404
▁always	-7.9979
▁ja	-7.99871
▁moment	-8.02047
▁friend	-8.02407
▁why	-8.02488
▁told	-8.03857
▁mind	-8.03911
▁ju	-8.06701
▁light	-8.06724
▁mother	-8.0861
▁because	-8.09177
▁home	-8.09326
▁side	-8.10162
▁yes	-8.10442
▁read	-8.10558
▁answer	-8.10691
▁something	-8.11046
▁fell	-8.11896
▁name	-8.12974
▁feel	-8.13882
▁find	-8.14194
▁world	-8.14664
▁high	-8.15906
▁return	-8.16982
▁certain	-8.17342
▁water	-8.17827
▁appear	-8.18986
▁knew	-8.19357
▁woman	-8.19372
▁having	-8.21428
▁few	-8.21816
▁hard	-8.2247
▁began	-8.22768
▁person	-8.23119
▁kind	-8.2317
▁better	-8.23272
▁follow	-8.24468
▁enough	-8.24862
▁present	-8.25097
▁voice	-8.25838
▁white	-8.27628
▁believe	-8.2763
lie	-8.29683
▁hundred	-8.30889
▁hope	-8.31066
▁between	-8.31513
▁morning	-8.31514
▁walk	-8.31756
▁ni	-8.32002
▁prince	-8.32773
▁felt	-8.32897
▁close	-8.33233
▁power	-8.34115
ship	-8.35025
▁herself	-8.35123
▁six	-8.35802
▁half	-8.36247
▁among	-8.36431
▁however	-8.36437
▁talk	-8.36897
▁also	-8.37563
▁wonder	-8.37753
▁perhaps	-8.37973
▁replied	-8.38419
▁course	-8.38432
▁full	-8.38521
▁point	-8.38949
▁quite	-8.39096
▁speak	-8.40006
▁myself	-8.40224
▁matter	-8.41194
▁keep	-8.41372
▁small	-8.42295
▁almo	-8.44415
▁together	-8.47791
▁strange	-8.48524
▁until	-8.48814
▁since	-8.48854
▁continu	-8.5052
▁anything	-8.51298
▁general	-8.51534
▁next	-8.51545
▁dark	-8.51568
▁stood	-8.51792
▁black	-8.52051
▁brought	-8.52301
▁leave	-8.53104
▁large	-8.53878
▁consider	-8.54123
▁wood	-8.54381
▁along	-8.54406
▁horse	-8.55738
▁nature	-8.56774
▁john	-8.57586
▁money	-8.58411
▁rather	-8.58951
▁twenty	-8.59485
▁idea	-8.60826
▁seven	-8.63153
▁question	-8.64288
▁themselves	-8.68424
▁direct	-8.69345
▁remain	-8.6964
▁thousand	-8.69944
▁behind	-8.70252
▁doctor	-8.7056
▁ground	-8.7306
▁brother	-8.73065
q	-9.62419
